0021
000e
fffd
ffe8
0011
fff6
000d
000b
0037
ffdb
002f
000c
ffde
0029
0019
0000
0032
002d
0002
ffe2
0034
fff4
0033
0016
fffb
ffda
0004
ffff
0002
fffa
ffe3
0015
0027
ffda
001e
fff8
ffd8
0012
0010
0025
fff5
0024
fff0
0022
ffed
0021
0026
ffdf
ffef
ffed
fff5
fffe
fff4
0021
0009
fff7
fffc
000f
ffe0
fffe
ffec
ffd0
0026
fff6
001c
001e
0012
ffe8
0003
0007
ffde
ffe0
001f
ffdb
fffa
ffcf
0015
0010
002c
fff5
002c
ffe7
0006
0023
ffff
fffd
fff3
001e
fffa
002c
0002
ffe2
0013
ffe7
0020
ffe3
ffdf
000f
0012
002b
0000
0026
000d
0005
ffd6
0004
0001
0012
ffee
0037
ffe1
ffef
fff3
0013
ffde
002a
001c
ffee
0036
002c
fffc
ffda
0008
000f
000b
